unsigned char model_tflite[] = {
  0x1c, 0x00, 0x00, 0x00, 0x54, 0x46, 0x4c, 0x33, 0x14, 0x00, 0x20, 0x00,
  0x1c, 0x00, 0x18, 0x00, 0x14, 0x00, 0x10, 0x00, 0x0c, 0x00, 0x00, 0x00,
  0x08, 0x00, 0x04, 0x00, 0x14, 0x00, 0x00, 0x00, 0x1c, 0x00, 0x00, 0x00,
  0x98, 0x00, 0x00, 0x00, 0xf0, 0x00, 0x00, 0x00, 0x88, 0x08, 0x00, 0x00,
  0x98, 0x08, 0x00, 0x00, 0x4c, 0x0e, 0x00, 0x00, 0x03, 0x00, 0x00, 0x00,
  0x01, 0x00, 0x00, 0x00, 0x10, 0x00, 0x00, 0x00, 0x00, 0x00, 0x0a, 0x00,
  0x10, 0x00, 0x0c, 0x00, 0x08, 0x00, 0x04, 0x00, 0x0a, 0x00, 0x00, 0x00,
  0x0c, 0x00, 0x00, 0x00, 0x1c, 0x00, 0x00, 0x00, 0x3c, 0x00, 0x00, 0x00,
  0x0f, 0x00, 0x00, 0x00, 0x73, 0x65, 0x72, 0x76, 0x69, 0x6e, 0x67, 0x5f,
  0x64, 0x65, 0x66, 0x61, 0x75, 0x6c, 0x74, 0x00, 0x01, 0x00, 0x00, 0x00,
  0x04, 0x00, 0x00, 0x00, 0x90, 0xff, 0xff, 0xff, 0x0a, 0x00, 0x00, 0x00,
  0x04, 0x00, 0x00, 0x00, 0x08, 0x00, 0x00, 0x00, 0x6f, 0x75, 0x74, 0x70,
  0x75, 0x74, 0x5f, 0x30, 0x00, 0x00, 0x00, 0x00, 0x01, 0x00, 0x00, 0x00,
  0x04, 0x00, 0x00, 0x00, 0x5e, 0xf7, 0xff, 0xff, 0x04, 0x00, 0x00, 0x00,
  0x0c, 0x00, 0x00, 0x00, 0x6b, 0x65, 0x72, 0x61, 0x73, 0x5f, 0x74, 0x65,
  0x6e, 0x73, 0x6f, 0x72, 0x00, 0x00, 0x00, 0x00, 0x02, 0x00, 0x00, 0x00,
  0x34, 0x00, 0x00, 0x00, 0x04, 0x00, 0x00, 0x00, 0xdc, 0xff, 0xff, 0xff,
  0x0d, 0x00, 0x00, 0x00, 0x04, 0x00, 0x00, 0x00, 0x13, 0x00, 0x00, 0x00,
  0x43, 0x4f, 0x4e, 0x56, 0x45, 0x52, 0x53, 0x49, 0x4f, 0x4e, 0x5f, 0x4d,
  0x45, 0x54, 0x41, 0x44, 0x41, 0x54, 0x41, 0x00, 0x08, 0x00, 0x0c, 0x00,
  0x08, 0x00, 0x04, 0x00, 0x08, 0x00, 0x00, 0x00, 0x0c, 0x00, 0x00, 0x00,
  0x04, 0x00, 0x00, 0x00, 0x13, 0x00, 0x00, 0x00, 0x6d, 0x69, 0x6e, 0x5f,
  0x72, 0x75, 0x6e, 0x74, 0x69, 0x6d, 0x65, 0x5f, 0x76, 0x65, 0x72, 0x73,
  0x69, 0x6f, 0x6e, 0x00, 0x0e, 0x00, 0x00, 0x00, 0x94, 0x07, 0x00, 0x00,
  0x8c, 0x07, 0x00, 0x00, 0x5c, 0x07, 0x00, 0x00, 0x4c, 0x06, 0x00, 0x00,
  0x34, 0x06, 0x00, 0x00, 0x14, 0x06, 0x00, 0x00, 0xc4, 0x05, 0x00, 0x00,
  0xb4, 0x00, 0x00, 0x00, 0xac, 0x00, 0x00, 0x00, 0xa4, 0x00, 0x00, 0x00,
  0x9c, 0x00, 0x00, 0x00, 0x94, 0x00, 0x00, 0x00, 0x74, 0x00, 0x00, 0x00,
  0x04, 0x00, 0x00, 0x00, 0x12, 0xf8, 0xff, 0xff, 0x04, 0x00, 0x00, 0x00,
  0x60, 0x00, 0x00, 0x00, 0x10, 0x00, 0x00, 0x00, 0x00, 0x00, 0x00, 0x00,
  0x08, 0x00, 0x0e, 0x00, 0x08, 0x00, 0x04, 0x00, 0x08, 0x00, 0x00, 0x00,
  0x10, 0x00, 0x00, 0x00, 0x24, 0x00, 0x00, 0x00, 0x00, 0x00, 0x06, 0x00,
  0x08, 0x00, 0x04, 0x00, 0x06, 0x00, 0x00, 0x00, 0x04, 0x00, 0x00, 0x00,
  0x00, 0x00, 0x00, 0x00, 0x0c, 0x00, 0x18, 0x00, 0x14, 0x00, 0x10, 0x00,
  0x0c, 0x00, 0x04, 0x00, 0x0c, 0x00, 0x00, 0x00, 0x08, 0x78, 0x5f, 0x22,
  0xfa, 0xbd, 0x18, 0x63, 0x02, 0x00, 0x00, 0x00, 0x02, 0x00, 0x00, 0x00,
  0x04, 0x00, 0x00, 0x00, 0x06, 0x00, 0x00, 0x00, 0x32, 0x2e, 0x31, 0x39,
  0x2e, 0x30, 0x00, 0x00, 0x7e, 0xf8, 0xff, 0xff, 0x04, 0x00, 0x00, 0x00,
  0x10, 0x00, 0x00, 0x00, 0x31, 0x2e, 0x35, 0x2e, 0x30, 0x00, 0x00, 0x00,
  0x00, 0x00, 0x00, 0x00, 0x00, 0x00, 0x00, 0x00, 0x94, 0xf3, 0xff, 0xff,
  0x98, 0xf3, 0xff, 0xff, 0x9c, 0xf3, 0xff, 0xff, 0xa0, 0xf3, 0xff, 0xff,
  0xaa, 0xf8, 0xff, 0xff, 0x04, 0x00, 0x00, 0x00, 0x00, 0x05, 0x00, 0x00,
  0x5a, 0xc4, 0x84, 0x3e, 0xd6, 0x03, 0x71, 0x3d, 0x35, 0xa9, 0x0f, 0xbe,
  0x91, 0x79, 0x41, 0x3e, 0x4b, 0xd7, 0xfb, 0x3d, 0x4e, 0x94, 0xc7, 0xbe,
  0xf3, 0x7d, 0x7f, 0x3e, 0xdd, 0x8e, 0x07, 0xbe, 0x76, 0x6e, 0x4e, 0xbe,
  0x63, 0xfe, 0x99, 0xbe, 0x0a, 0x4e, 0xc1, 0x3e, 0x0b, 0x9d, 0x9a, 0xbe,
  0x87, 0xf1, 0x4d, 0xbe, 0x11, 0xeb, 0x1a, 0x3e, 0x6d, 0x47, 0xc0, 0x3e,
  0x1a, 0x18, 0x97, 0x3d, 0x1c, 0xc3, 0x5d, 0x3e, 0x82, 0x9d, 0x33, 0x3e,
  0xa2, 0xf2, 0xfc, 0x3d, 0xa7, 0xee, 0xbd, 0xbe, 0x78, 0x88, 0xb3, 0xbe,
  0xf4, 0xd6, 0xb9, 0x3d, 0x38, 0x3c, 0x60, 0x3c, 0x8f, 0xb2, 0x85, 0x3e,
  0x20, 0xc6, 0x8b, 0x3e, 0x67, 0x7c, 0x5d, 0xbe, 0xeb, 0xca, 0x10, 0x3e,
  0xe6, 0x35, 0x31, 0x3e, 0x82, 0xef, 0xc2, 0x3e, 0x22, 0xad, 0xc6, 0x3e,
  0xd5, 0x88, 0xb1, 0xbd, 0x45, 0xe3, 0xb6, 0x3e, 0xa8, 0x34, 0xa7, 0x3d,
  0x3a, 0x5c, 0xaa, 0xbe, 0x4d, 0xbe, 0x06, 0xbe, 0x33, 0x10, 0x43, 0xbe,
  0xce, 0x54, 0x97, 0x3e, 0x62, 0xc9, 0xc9, 0x3e, 0xfb, 0x81, 0x8c, 0xbe,
  0xbd, 0x94, 0xc0, 0x3e, 0x9a, 0x42, 0x3b, 0x3e, 0x4a, 0x23, 0x8c, 0x3e,
  0x41, 0x91, 0xb4, 0x3d, 0x2b, 0x8a, 0xd4, 0x3e, 0xa9, 0xa7, 0xa6, 0x3d,
  0x07, 0x30, 0x66, 0x3e, 0x67, 0x16, 0xe7, 0x3d, 0x6d, 0x42, 0xf5, 0x3b,
  0xcd, 0x48, 0xa7, 0x3e, 0x2f, 0xe4, 0xba, 0xbd, 0x9e, 0xdb, 0x2c, 0xbd,
  0x61, 0xf2, 0xdc, 0x3e, 0x55, 0x68, 0xad, 0xbe, 0xf7, 0x13, 0x30, 0x3e,
  0xd5, 0x2f, 0xbd, 0xbe, 0x7d, 0x96, 0xe4, 0xbe, 0x58, 0xd8, 0x4a, 0xbd,
  0x81, 0x85, 0x9f, 0xbe, 0x25, 0x82, 0x3e, 0x3e, 0x4e, 0x67, 0x6e, 0xbe,
  0x44, 0x6b, 0xa4, 0x3e, 0x15, 0x86, 0x8a, 0xbe, 0x3e, 0x5f, 0x7b, 0xbc,
  0x09, 0xaf, 0x85, 0x3e, 0x3d, 0xd2, 0xa4, 0x3c, 0x38, 0x5e, 0xc0, 0x3e,
  0x3a, 0x48, 0x6c, 0x3e, 0x30, 0xb2, 0x88, 0xbe, 0x05, 0x23, 0x8c, 0x3e,
  0xf6, 0x20, 0xab, 0x3e, 0xc4, 0xb7, 0x50, 0xbe, 0x79, 0xdf, 0xf5, 0x3b,
  0x27, 0x1f, 0x2d, 0xbe, 0x79, 0xeb, 0xd5, 0x3e, 0x86, 0x4c, 0x9c, 0xbe,
  0xe9, 0x80, 0xb9, 0xbe, 0x6b, 0xed, 0xd1, 0xbe, 0x90, 0xd0, 0xa1, 0x3e,
  0xa1, 0x86, 0x36, 0xbe, 0x6b, 0x9c, 0xdb, 0xbe, 0xb2, 0xa4, 0xa6, 0xbe,
  0xdd, 0xb6, 0x35, 0xbe, 0x9d, 0x05, 0x3e, 0x3e, 0xc4, 0xe6, 0x16, 0xbe,
  0x25, 0x1c, 0x06, 0xbe, 0x88, 0x0d, 0x08, 0xbe, 0x7b, 0x8f, 0x9f, 0xbe,
  0x9a, 0xf7, 0x48, 0xbe, 0xc9, 0x80, 0xe4, 0xbd, 0xaa, 0x09, 0xcb, 0x3e,
  0xa4, 0x16, 0x90, 0xbe, 0x0a, 0xc4, 0x42, 0xbe, 0x00, 0xf5, 0xdb, 0xbe,
  0x43, 0x69, 0x8c, 0x3e, 0xd5, 0x62, 0xe6, 0x3d, 0xc1, 0x15, 0x7a, 0x3e,
  0x71, 0xd0, 0xbd, 0x3d, 0x48, 0xcd, 0x88, 0xbe, 0x7a, 0x34, 0xee, 0xbe,
  0xcf, 0x0e, 0x90, 0x3c, 0x32, 0x42, 0xb0, 0x3e, 0xeb, 0xfd, 0x72, 0xbe,
  0xa8, 0x4d, 0xaf, 0x3e, 0xae, 0x6d, 0xdb, 0x3e, 0x54, 0x06, 0x12, 0x3e,
  0x3c, 0x31, 0x5c, 0x3e, 0xad, 0x0f, 0x34, 0xbe, 0xca, 0x99, 0xc8, 0xbd,
  0x24, 0x94, 0x4c, 0x3e, 0x91, 0x32, 0xbd, 0x3e, 0xdd, 0x55, 0xd5, 0x3e,
  0x8f, 0xb5, 0x2d, 0x3e, 0x93, 0x30, 0x15, 0xbd, 0x36, 0x88, 0x90, 0xbe,
  0x47, 0xc8, 0x79, 0xbe, 0xdc, 0xe0, 0x6a, 0x3e, 0xfd, 0xf3, 0x36, 0x3e,
  0x45, 0x43, 0x9a, 0x3e, 0x96, 0xb2, 0x54, 0x3e, 0x23, 0x97, 0x61, 0x3c,
  0x73, 0x72, 0xe4, 0x3e, 0x82, 0xf6, 0x6b, 0x3e, 0x88, 0xa0, 0xca, 0xbc,
  0x59, 0x97, 0xa2, 0xbe, 0xc3, 0xa3, 0x54, 0x3e, 0x49, 0x27, 0x96, 0x3e,
  0x56, 0x7f, 0x26, 0x3e, 0x25, 0x26, 0x2b, 0xbe, 0x53, 0x06, 0x63, 0x3e,
  0xf3, 0x06, 0x3f, 0xbe, 0x9a, 0x0a, 0x80, 0xbd, 0xf2, 0xbe, 0x29, 0x3e,
  0xd1, 0x74, 0x81, 0xbd, 0x3b, 0x1e, 0x67, 0xbb, 0x95, 0x6c, 0x6e, 0xbe,
  0x1d, 0x3d, 0xa6, 0xbe, 0xb8, 0xf4, 0xaa, 0xbe, 0xc5, 0x23, 0x91, 0xbe,
  0x07, 0xea, 0x5c, 0xbd, 0x32, 0x27, 0x74, 0xbe, 0x48, 0x9e, 0x41, 0xbe,
  0xc4, 0x03, 0x81, 0xbe, 0x08, 0xb1, 0x6c, 0xbe, 0xe8, 0xa9, 0x9d, 0x3e,
  0xec, 0x6a, 0xf8, 0x3d, 0x7d, 0x46, 0xf6, 0xbd, 0x1a, 0x29, 0xfe, 0xbd,
  0x96, 0x9d, 0xc0, 0xbe, 0x3e, 0xd2, 0x7f, 0xbd, 0xdf, 0x22, 0xb5, 0xbe,
  0x0c, 0xee, 0x10, 0x3d, 0x53, 0x1f, 0x9d, 0xbe, 0xc2, 0x06, 0x7d, 0xbe,
  0x45, 0xcb, 0xe4, 0xbe, 0x37, 0x30, 0x82, 0x3d, 0x61, 0xc0, 0x59, 0x3e,
  0xe5, 0x24, 0xcb, 0x3c, 0xce, 0x4c, 0x0a, 0xbe, 0xf4, 0x02, 0x5e, 0xbe,
  0x0e, 0x4f, 0x9c, 0x3e, 0x4e, 0xd3, 0x03, 0xba, 0x73, 0x0c, 0xcf, 0xbe,
  0x53, 0x9c, 0xa5, 0x3e, 0x72, 0x39, 0xa7, 0xbe, 0x94, 0x90, 0x44, 0xbc,
  0x57, 0xf8, 0x23, 0x3e, 0x2c, 0xe4, 0x87, 0xbe, 0x25, 0xd2, 0x87, 0xbe,
  0x6a, 0xb7, 0x8f, 0xbe, 0x89, 0xe5, 0xb9, 0xbd, 0xf2, 0xd2, 0xf5, 0xbd,
  0x30, 0xf0, 0x55, 0xbd, 0xe5, 0xa7, 0xc8, 0x3e, 0xe3, 0xc0, 0xa5, 0x3e,
  0xee, 0x9f, 0x5e, 0xbd, 0x47, 0x01, 0x28, 0x3e, 0x07, 0xe3, 0x65, 0x3e,
  0xb7, 0xc3, 0x3c, 0xbe, 0x31, 0xb7, 0x75, 0xbe, 0xe2, 0xc9, 0x84, 0x3d,
  0xd5, 0xb4, 0xb1, 0xbe, 0x8a, 0x50, 0xb3, 0xbd, 0x13, 0x6f, 0xd2, 0x3d,
  0x26, 0xf7, 0x83, 0xbe, 0x46, 0x91, 0x9a, 0xbe, 0x0c, 0x59, 0x09, 0xbe,
  0x74, 0xa4, 0xcd, 0x3e, 0x82, 0x79, 0x09, 0x3e, 0x8b, 0x7d, 0x3a, 0xbe,
  0x31, 0x46, 0xb6, 0x3d, 0xe8, 0x60, 0x19, 0xbd, 0x4a, 0xa8, 0xbb, 0x3e,
  0x6f, 0xf1, 0xc6, 0x3e, 0x44, 0xc5, 0xd9, 0xbe, 0x30, 0x86, 0x91, 0x3e,
  0xf7, 0x33, 0x0d, 0xbd, 0xab, 0xa7, 0x77, 0x3d, 0x66, 0xe1, 0xe2, 0x3d,
  0xdf, 0x43, 0x8f, 0xbe, 0xb7, 0x6a, 0x80, 0x3e, 0x34, 0xbe, 0x8a, 0x3d,
  0x27, 0xd8, 0x5b, 0xbe, 0xf1, 0x2d, 0x9c, 0xbd, 0x2e, 0x04, 0xbe, 0xbe,
  0x62, 0xd3, 0xc1, 0x3d, 0x13, 0x8d, 0xb3, 0x3e, 0x4e, 0x2b, 0x80, 0x3e,
  0xbf, 0x7f, 0x0e, 0xbe, 0xa0, 0x55, 0x73, 0xbd, 0xc2, 0x87, 0xba, 0x3e,
  0x39, 0x95, 0xe9, 0x3b, 0x32, 0xf9, 0x90, 0xbe, 0xea, 0x92, 0xd3, 0x3e,
  0xaa, 0x76, 0x1e, 0x3e, 0xb3, 0xab, 0x59, 0x3e, 0x70, 0xb3, 0x0f, 0x3e,
  0xe4, 0xff, 0x7f, 0x3e, 0x02, 0x74, 0xa1, 0xbe, 0x36, 0x37, 0xd2, 0x3e,
  0x37, 0x7f, 0x13, 0x3e, 0x4a, 0x46, 0xfd, 0x3d, 0xd4, 0x72, 0x6e, 0x3e,
  0xe0, 0x3b, 0xa7, 0x3e, 0x03, 0x0d, 0x5c, 0xbd, 0x58, 0x5c, 0x8d, 0x3e,
  0x38, 0x26, 0x4a, 0x3e, 0xe0, 0x03, 0x8d, 0x3d, 0x92, 0xb5, 0x50, 0x3e,
  0x3e, 0x3e, 0x16, 0x3e, 0x77, 0x5e, 0x9d, 0x3e, 0xdb, 0x51, 0xcc, 0x3e,
  0x26, 0x1b, 0x9b, 0xbe, 0xf5, 0x58, 0x31, 0x3c, 0x58, 0x32, 0x91, 0x3e,
  0x7f, 0xba, 0xe8, 0x3d, 0x0c, 0x68, 0x96, 0xbe, 0xf5, 0x4e, 0xa9, 0x3e,
  0x96, 0xae, 0xc7, 0x3d, 0xb7, 0xd2, 0x8c, 0x3e, 0x36, 0xb5, 0xb4, 0x3e,
  0x91, 0x69, 0x14, 0xbe, 0xae, 0x93, 0x21, 0xbe, 0xb1, 0xa1, 0x3c, 0xbd,
  0x4a, 0x24, 0x55, 0xbe, 0xbe, 0x60, 0xbe, 0xbe, 0x30, 0x5c, 0x29, 0x3e,
  0x5d, 0xf5, 0xc7, 0xbe, 0x62, 0x4f, 0x9d, 0x3e, 0x83, 0x0d, 0x82, 0xbe,
  0xa2, 0xd1, 0xbd, 0x3e, 0xef, 0x2c, 0x7c, 0xbd, 0x22, 0x3b, 0x21, 0x3e,
  0xbb, 0x18, 0x98, 0xbe, 0xfe, 0x86, 0x3b, 0xbe, 0x75, 0x24, 0x8c, 0xbd,
  0x3a, 0xe5, 0xb4, 0x3e, 0xc1, 0xc9, 0xac, 0xbe, 0xcd, 0xf7, 0xd0, 0x3e,
  0x8b, 0xc4, 0x80, 0x3e, 0xc5, 0x13, 0x39, 0xbe, 0x40, 0xd0, 0xbf, 0xbe,
  0x10, 0x80, 0x81, 0x3e, 0x75, 0xb4, 0x7d, 0x3e, 0xe4, 0x6f, 0x2e, 0xbe,
  0xda, 0x4c, 0x0d, 0xbe, 0xf5, 0xbe, 0xc4, 0xbe, 0x64, 0x90, 0x8c, 0x3e,
  0xcf, 0x40, 0xd7, 0xbd, 0xcc, 0x38, 0x80, 0x3c, 0x01, 0xa1, 0xb9, 0x3e,
  0xdb, 0x43, 0x76, 0x3e, 0x3a, 0x8b, 0x82, 0x3e, 0xdd, 0xb5, 0x23, 0x3e,
  0x67, 0x5a, 0xe1, 0xbd, 0x99, 0xe7, 0x96, 0x3e, 0xb5, 0x35, 0x3c, 0xbd,
  0xc6, 0x67, 0x7f, 0x3e, 0xfa, 0xaf, 0x17, 0x3c, 0xf5, 0x3d, 0x36, 0x3e,
  0xd3, 0x16, 0x37, 0xbe, 0x57, 0xe6, 0xe3, 0xbd, 0x3d, 0x8c, 0xb5, 0x3e,
  0x46, 0x3c, 0x82, 0x3e, 0x4b, 0xaa, 0x9f, 0xbd, 0x30, 0x30, 0x8a, 0xbe,
  0xbf, 0x1f, 0x8c, 0xbe, 0x7e, 0x50, 0xfe, 0x3d, 0x21, 0x24, 0xa7, 0xbe,
  0x6e, 0xa5, 0x9c, 0x3e, 0xba, 0xa6, 0x86, 0xbe, 0x4d, 0xba, 0x65, 0x3d,
  0xea, 0xbe, 0x64, 0xbc, 0x25, 0xa5, 0xc2, 0xbe, 0x6e, 0x67, 0x84, 0xbd,
  0x1c, 0x90, 0x0c, 0x3e, 0x9b, 0xf3, 0x67, 0xbe, 0x34, 0xad, 0x24, 0x3e,
  0x10, 0xf5, 0x4c, 0x3e, 0x91, 0x32, 0x19, 0xbd, 0xb4, 0x82, 0xd4, 0x3e,
  0x85, 0x30, 0x83, 0xbe, 0xd7, 0xd1, 0x80, 0xbe, 0x17, 0x42, 0xd1, 0xbe,
  0xf0, 0x37, 0xad, 0xbd, 0x33, 0x8d, 0x2c, 0x3e, 0x6d, 0x7a, 0x98, 0xbe,
  0x0a, 0x09, 0x74, 0xbe, 0x5c, 0xdb, 0xb7, 0x3d, 0xdb, 0x97, 0x19, 0xbc,
  0x76, 0x78, 0xa4, 0xbe, 0x77, 0xf6, 0x34, 0xbe, 0xf2, 0xa1, 0x74, 0x3e,
  0xe8, 0xf3, 0xa6, 0xbd, 0x80, 0x55, 0x83, 0xbe, 0xaf, 0x78, 0x58, 0xbe,
  0x0c, 0x25, 0x0f, 0x3e, 0x13, 0x26, 0xa6, 0xbd, 0xb7, 0xfb, 0xac, 0xbe,
  0x6c, 0xcc, 0xa4, 0xbe, 0x62, 0x36, 0x2c, 0xbe, 0xb6, 0xfd, 0xff, 0xff,
  0x04, 0x00, 0x00, 0x00, 0x40, 0x00, 0x00, 0x00, 0x5f, 0xc8, 0xe6, 0xbc,
  0xbe, 0xc5, 0xba, 0x3a, 0xe7, 0x2c, 0xfb, 0xbc, 0xad, 0x1e, 0x97, 0x3c,
  0x54, 0xd5, 0x98, 0x3d, 0x3c, 0x0a, 0xc6, 0x3c, 0xb5, 0x1d, 0x40, 0x3d,
  0x71, 0xd6, 0x74, 0xbd, 0x21, 0xb4, 0x1c, 0xbd, 0x86, 0xf7, 0x09, 0xbd,
  0xad, 0x79, 0xf3, 0x3c, 0x44, 0x78, 0xeb, 0x3c, 0x79, 0xcf, 0x77, 0x3d,
  0xfa, 0x49, 0xea, 0xbc, 0xd8, 0xae, 0x21, 0xbd, 0x33, 0x61, 0xab, 0x3d,
  0x02, 0xfe, 0xff, 0xff, 0x04, 0x00, 0x00, 0x00, 0x10, 0x00, 0x00, 0x00,
  0xe9, 0xe2, 0x6f, 0x3d, 0xd3, 0x76, 0x35, 0xbd, 0xdf, 0x22, 0xea, 0xbc,
  0x00, 0x00, 0x00, 0x00, 0x1e, 0xfe, 0xff, 0xff, 0x04, 0x00, 0x00, 0x00,
  0x08, 0x00, 0x00, 0x00, 0x3d, 0xcd, 0x7d, 0x3e, 0x3f, 0xcd, 0x7d, 0xbe,
  0x32, 0xfe, 0xff, 0xff, 0x04, 0x00, 0x00, 0x00, 0x00, 0x01, 0x00, 0x00,
  0x9b, 0x18, 0x69, 0x3e, 0xd0, 0xa8, 0xa1, 0x3e, 0xe4, 0x39, 0xef, 0x3d,
  0xe6, 0xf7, 0xff, 0xbd, 0x12, 0x4f, 0x14, 0x3e, 0x0a, 0xba, 0x08, 0x3e,
  0x2f, 0xf1, 0x8d, 0xbe, 0xcc, 0x5a, 0xcb, 0xbe, 0x10, 0x25, 0xae, 0xbe,
  0x60, 0x81, 0xa0, 0xbe, 0xbe, 0x47, 0x10, 0xbe, 0x63, 0x93, 0xe8, 0xbe,
  0xdd, 0x82, 0xf6, 0x3e, 0x36, 0x74, 0xc6, 0xbe, 0x38, 0x8d, 0xfe, 0x3e,
  0xb1, 0x87, 0x83, 0x3e, 0x8c, 0xd0, 0xea, 0xbd, 0x9c, 0x22, 0x93, 0xbe,
  0x2a, 0xc6, 0x19, 0xbe, 0x90, 0xef, 0xbd, 0xbe, 0xef, 0x52, 0xa5, 0x3c,
  0xe1, 0xda, 0x0b, 0xbf, 0x2c, 0x9b, 0x03, 0x3f, 0x08, 0xe6, 0x2d, 0x3e,
  0x77, 0x23, 0xd0, 0x3d, 0x39, 0xe7, 0x5d, 0x3e, 0x3c, 0x17, 0x83, 0xbe,
  0x58, 0x4c, 0x7b, 0xbd, 0x33, 0x95, 0x8a, 0xbd, 0xe6, 0xb5, 0x99, 0xbe,
  0x4c, 0x92, 0x98, 0xbd, 0x8e, 0x68, 0x88, 0x3d, 0x7f, 0xc3, 0xa8, 0x3e,
  0x81, 0xe3, 0x17, 0xbd, 0x1c, 0xb4, 0x33, 0xbe, 0x44, 0x82, 0x55, 0x3e,
  0x20, 0x4b, 0x60, 0x3d, 0x24, 0x01, 0xcc, 0xbe, 0x97, 0xa5, 0xa0, 0xbd,
  0x7e, 0x90, 0x6b, 0xbe, 0x20, 0x0b, 0xd3, 0xbe, 0xdf, 0x9d, 0xcb, 0x3e,
  0xe7, 0x07, 0x08, 0xbe, 0xd7, 0xca, 0x08, 0xbf, 0x98, 0xad, 0x63, 0xbe,
  0x36, 0xde, 0xd5, 0x3e, 0x69, 0x68, 0xbd, 0x3e, 0x60, 0xb3, 0x90, 0xbd,
  0x0c, 0x04, 0xff, 0xbe, 0xe4, 0x9f, 0xa4, 0xbd, 0x6a, 0x52, 0x43, 0xbe,
  0x70, 0xec, 0x98, 0xbe, 0x2c, 0xe0, 0xc5, 0x3e, 0xca, 0x19, 0xce, 0xbe,
  0x5a, 0x61, 0x09, 0xbf, 0x34, 0x48, 0x0d, 0x3e, 0x0c, 0x4c, 0x6d, 0xbe,
  0x6e, 0x8d, 0x82, 0x3e, 0xba, 0xd9, 0xb8, 0xbe, 0xf6, 0x90, 0x43, 0xbe,
  0x4d, 0x3b, 0xf2, 0xbe, 0x9a, 0x2c, 0x97, 0x3e, 0x5c, 0xa9, 0x27, 0x3e,
  0x4b, 0x9c, 0xa1, 0xbe, 0x3e, 0xff, 0xff, 0xff, 0x04, 0x00, 0x00, 0x00,
  0x20, 0x00, 0x00, 0x00, 0x28, 0xc8, 0x2e, 0xbf, 0xbf, 0x1c, 0x2f, 0x3e,
  0xcb, 0xdd, 0x58, 0xbf, 0xc0, 0xcb, 0xf1, 0x3e, 0x16, 0x3c, 0x05, 0xbe,
  0x4f, 0x44, 0xc2, 0x3c, 0x1a, 0x3e, 0xa5, 0x3e, 0xa0, 0x9f, 0x29, 0xbe,
  0x64, 0xfa, 0xff, 0xff, 0x68, 0xfa, 0xff, 0xff, 0x0f, 0x00, 0x00, 0x00,
  0x4d, 0x4c, 0x49, 0x52, 0x20, 0x43, 0x6f, 0x6e, 0x76, 0x65, 0x72, 0x74,
  0x65, 0x64, 0x2e, 0x00, 0x01, 0x00, 0x00, 0x00, 0x14, 0x00, 0x00, 0x00,
  0x00, 0x00, 0x0e, 0x00, 0x18, 0x00, 0x14, 0x00, 0x10, 0x00, 0x0c, 0x00,
  0x08, 0x00, 0x04, 0x00, 0x0e, 0x00, 0x00, 0x00, 0x14, 0x00, 0x00, 0x00,
  0x1c, 0x00, 0x00, 0x00, 0x24, 0x01, 0x00, 0x00, 0x28, 0x01, 0x00, 0x00,
  0x2c, 0x01, 0x00, 0x00, 0x04, 0x00, 0x00, 0x00, 0x6d, 0x61, 0x69, 0x6e,
  0x00, 0x00, 0x00, 0x00, 0x04, 0x00, 0x00, 0x00, 0xcc, 0x00, 0x00, 0x00,
  0x84, 0x00, 0x00, 0x00, 0x50, 0x00, 0x00, 0x00, 0x14, 0x00, 0x00, 0x00,
  0x00, 0x00, 0x0e, 0x00, 0x1a, 0x00, 0x14, 0x00, 0x10, 0x00, 0x0c, 0x00,
  0x0b, 0x00, 0x04, 0x00, 0x0e, 0x00, 0x00, 0x00, 0x1c, 0x00, 0x00, 0x00,
  0x00, 0x00, 0x00, 0x09, 0x1c, 0x00, 0x00, 0x00, 0x20, 0x00, 0x00, 0x00,
  0x01, 0x00, 0x00, 0x00, 0x00, 0x00, 0x06, 0x00, 0x08, 0x00, 0x04, 0x00,
  0x06, 0x00, 0x00, 0x00, 0x00, 0x00, 0x80, 0x3f, 0x01, 0x00, 0x00, 0x00,
  0x0a, 0x00, 0x00, 0x00, 0x01, 0x00, 0x00, 0x00, 0x09, 0x00, 0x00, 0x00,
  0x9a, 0xff, 0xff, 0xff, 0x10, 0x00, 0x00, 0x00, 0x00, 0x00, 0x00, 0x08,
  0x0c, 0x00, 0x00, 0x00, 0x10, 0x00, 0x00, 0x00, 0x2c, 0xfb, 0xff, 0xff,
  0x01, 0x00, 0x00, 0x00, 0x09, 0x00, 0x00, 0x00, 0x03, 0x00, 0x00, 0x00,
  0x08, 0x00, 0x00, 0x00, 0x01, 0x00, 0x00, 0x00, 0x03, 0x00, 0x00, 0x00,
  0xca, 0xff, 0xff, 0xff, 0x10, 0x00, 0x00, 0x00, 0x00, 0x00, 0x00, 0x08,
  0x10, 0x00, 0x00, 0x00, 0x14, 0x00, 0x00, 0x00, 0xba, 0xff, 0xff, 0xff,
  0x00, 0x00, 0x00, 0x01, 0x01, 0x00, 0x00, 0x00, 0x08, 0x00, 0x00, 0x00,
  0x03, 0x00, 0x00, 0x00, 0x07, 0x00, 0x00, 0x00, 0x02, 0x00, 0x00, 0x00,
  0x04, 0x00, 0x00, 0x00, 0x00, 0x00, 0x0e, 0x00, 0x16, 0x00, 0x00, 0x00,
  0x10, 0x00, 0x0c, 0x00, 0x0b, 0x00, 0x04, 0x00, 0x0e, 0x00, 0x00, 0x00,
  0x18, 0x00, 0x00, 0x00, 0x00, 0x00, 0x00, 0x08, 0x18, 0x00, 0x00, 0x00,
  0x1c, 0x00, 0x00, 0x00, 0x00, 0x00, 0x06, 0x00, 0x08, 0x00, 0x07, 0x00,
  0x06, 0x00, 0x00, 0x00, 0x00, 0x00, 0x00, 0x01, 0x01, 0x00, 0x00, 0x00,
  0x07, 0x00, 0x00, 0x00, 0x03, 0x00, 0x00, 0x00, 0x00, 0x00, 0x00, 0x00,
  0x06, 0x00, 0x00, 0x00, 0x05, 0x00, 0x00, 0x00, 0x01, 0x00, 0x00, 0x00,
  0x0a, 0x00, 0x00, 0x00, 0x01, 0x00, 0x00, 0x00, 0x00, 0x00, 0x00, 0x00,
  0x0b, 0x00, 0x00, 0x00, 0xfc, 0x03, 0x00, 0x00, 0xa4, 0x03, 0x00, 0x00,
  0x4c, 0x03, 0x00, 0x00, 0x10, 0x03, 0x00, 0x00, 0xb4, 0x02, 0x00, 0x00,
  0x5c, 0x02, 0x00, 0x00, 0x10, 0x02, 0x00, 0x00, 0x7c, 0x01, 0x00, 0x00,
  0xe0, 0x00, 0x00, 0x00, 0x60, 0x00, 0x00, 0x00, 0x04, 0x00, 0x00, 0x00,
  0x46, 0xfc, 0xff, 0xff, 0x00, 0x00, 0x00, 0x01, 0x14, 0x00, 0x00, 0x00,
  0x1c, 0x00, 0x00, 0x00, 0x1c, 0x00, 0x00, 0x00, 0x0b, 0x00, 0x00, 0x00,
  0x34, 0x00, 0x00, 0x00, 0x02, 0x00, 0x00, 0x00, 0xff, 0xff, 0xff, 0xff,
  0x02, 0x00, 0x00, 0x00, 0x30, 0xfc, 0xff, 0xff, 0x1b, 0x00, 0x00, 0x00,
  0x53, 0x74, 0x61, 0x74, 0x65, 0x66, 0x75, 0x6c, 0x50, 0x61, 0x72, 0x74,
  0x69, 0x74, 0x69, 0x6f, 0x6e, 0x65, 0x64, 0x43, 0x61, 0x6c, 0x6c, 0x5f,
  0x31, 0x3a, 0x30, 0x00, 0x02, 0x00, 0x00, 0x00, 0x01, 0x00, 0x00, 0x00,
  0x02, 0x00, 0x00, 0x00, 0x9e, 0xfc, 0xff, 0xff, 0x00, 0x00, 0x00, 0x01,
  0x14, 0x00, 0x00, 0x00, 0x1c, 0x00, 0x00, 0x00, 0x1c, 0x00, 0x00, 0x00,
  0x0a, 0x00, 0x00, 0x00, 0x58, 0x00, 0x00, 0x00, 0x02, 0x00, 0x00, 0x00,
  0xff, 0xff, 0xff, 0xff, 0x02, 0x00, 0x00, 0x00, 0x88, 0xfc, 0xff, 0xff,
  0x3c, 0x00, 0x00, 0x00, 0x73, 0x65, 0x71, 0x75, 0x65, 0x6e, 0x74, 0x69,
  0x61, 0x6c, 0x5f, 0x31, 0x2f, 0x64, 0x65, 0x6e, 0x73, 0x65, 0x5f, 0x32,
  0x5f, 0x31, 0x2f, 0x4d, 0x61, 0x74, 0x4d, 0x75, 0x6c, 0x3b, 0x73, 0x65,
  0x71, 0x75, 0x65, 0x6e, 0x74, 0x69, 0x61, 0x6c, 0x5f, 0x31, 0x2f, 0x64,
  0x65, 0x6e, 0x73, 0x65, 0x5f, 0x32, 0x5f, 0x31, 0x2f, 0x42, 0x69, 0x61,
  0x73, 0x41, 0x64, 0x64, 0x00, 0x00, 0x00, 0x00, 0x02, 0x00, 0x00, 0x00,
  0x01, 0x00, 0x00, 0x00, 0x02, 0x00, 0x00, 0x00, 0x1a, 0xfd, 0xff, 0xff,
  0x00, 0x00, 0x00, 0x01, 0x14, 0x00, 0x00, 0x00, 0x1c, 0x00, 0x00, 0x00,
  0x1c, 0x00, 0x00, 0x00, 0x09, 0x00, 0x00, 0x00, 0x74, 0x00, 0x00, 0x00,
  0x02, 0x00, 0x00, 0x00, 0xff, 0xff, 0xff, 0xff, 0x04, 0x00, 0x00, 0x00,
  0x04, 0xfd, 0xff, 0xff, 0x58, 0x00, 0x00, 0x00, 0x73, 0x65, 0x71, 0x75,
  0x65, 0x6e, 0x74, 0x69, 0x61, 0x6c, 0x5f, 0x31, 0x2f, 0x64, 0x65, 0x6e,
  0x73, 0x65, 0x5f, 0x31, 0x5f, 0x32, 0x2f, 0x4d, 0x61, 0x74, 0x4d, 0x75,
  0x6c, 0x3b, 0x73, 0x65, 0x71, 0x75, 0x65, 0x6e, 0x74, 0x69, 0x61, 0x6c,
  0x5f, 0x31, 0x2f, 0x64, 0x65, 0x6e, 0x73, 0x65, 0x5f, 0x31, 0x5f, 0x32,
  0x2f, 0x52, 0x65, 0x6c, 0x75, 0x3b, 0x73, 0x65, 0x71, 0x75, 0x65, 0x6e,
  0x74, 0x69, 0x61, 0x6c, 0x5f, 0x31, 0x2f, 0x64, 0x65, 0x6e, 0x73, 0x65,
  0x5f, 0x31, 0x5f, 0x32, 0x2f, 0x42, 0x69, 0x61, 0x73, 0x41, 0x64, 0x64,
  0x00, 0x00, 0x00, 0x00, 0x02, 0x00, 0x00, 0x00, 0x01, 0x00, 0x00, 0x00,
  0x04, 0x00, 0x00, 0x00, 0xb2, 0xfd, 0xff, 0xff, 0x00, 0x00, 0x00, 0x01,
  0x14, 0x00, 0x00, 0x00, 0x1c, 0x00, 0x00, 0x00, 0x1c, 0x00, 0x00, 0x00,
  0x08, 0x00, 0x00, 0x00, 0x6c, 0x00, 0x00, 0x00, 0x02, 0x00, 0x00, 0x00,
  0xff, 0xff, 0xff, 0xff, 0x10, 0x00, 0x00, 0x00, 0x9c, 0xfd, 0xff, 0xff,
  0x52, 0x00, 0x00, 0x00, 0x73, 0x65, 0x71, 0x75, 0x65, 0x6e, 0x74, 0x69,
  0x61, 0x6c, 0x5f, 0x31, 0x2f, 0x64, 0x65, 0x6e, 0x73, 0x65, 0x5f, 0x31,
  0x2f, 0x4d, 0x61, 0x74, 0x4d, 0x75, 0x6c, 0x3b, 0x73, 0x65, 0x71, 0x75,
  0x65, 0x6e, 0x74, 0x69, 0x61, 0x6c, 0x5f, 0x31, 0x2f, 0x64, 0x65, 0x6e,
  0x73, 0x65, 0x5f, 0x31, 0x2f, 0x52, 0x65, 0x6c, 0x75, 0x3b, 0x73, 0x65,
  0x71, 0x75, 0x65, 0x6e, 0x74, 0x69, 0x61, 0x6c, 0x5f, 0x31, 0x2f, 0x64,
  0x65, 0x6e, 0x73, 0x65, 0x5f, 0x31, 0x2f, 0x42, 0x69, 0x61, 0x73, 0x41,
  0x64, 0x64, 0x00, 0x00, 0x02, 0x00, 0x00, 0x00, 0x01, 0x00, 0x00, 0x00,
  0x10, 0x00, 0x00, 0x00, 0x96, 0xfe, 0xff, 0xff, 0x00, 0x00, 0x00, 0x01,
  0x10, 0x00, 0x00, 0x00, 0x10, 0x00, 0x00, 0x00, 0x07, 0x00, 0x00, 0x00,
  0x28, 0x00, 0x00, 0x00, 0x1c, 0xfe, 0xff, 0xff, 0x1b, 0x00, 0x00, 0x00,
  0x73, 0x65, 0x71, 0x75, 0x65, 0x6e, 0x74, 0x69, 0x61, 0x6c, 0x5f, 0x31,
  0x2f, 0x64, 0x65, 0x6e, 0x73, 0x65, 0x5f, 0x31, 0x2f, 0x4d, 0x61, 0x74,
  0x4d, 0x75, 0x6c, 0x00, 0x02, 0x00, 0x00, 0x00, 0x10, 0x00, 0x00, 0x00,
  0x14, 0x00, 0x00, 0x00, 0xde, 0xfe, 0xff, 0xff, 0x00, 0x00, 0x00, 0x01,
  0x10, 0x00, 0x00, 0x00, 0x10, 0x00, 0x00, 0x00, 0x06, 0x00, 0x00, 0x00,
  0x38, 0x00, 0x00, 0x00, 0x64, 0xfe, 0xff, 0xff, 0x2b, 0x00, 0x00, 0x00,
  0x73, 0x65, 0x71, 0x75, 0x65, 0x6e, 0x74, 0x69, 0x61, 0x6c, 0x5f, 0x31,
  0x2f, 0x64, 0x65, 0x6e, 0x73, 0x65, 0x5f, 0x31, 0x2f, 0x42, 0x69, 0x61,
  0x73, 0x41, 0x64, 0x64, 0x2f, 0x52, 0x65, 0x61, 0x64, 0x56, 0x61, 0x72,
  0x69, 0x61, 0x62, 0x6c, 0x65, 0x4f, 0x70, 0x00, 0x01, 0x00, 0x00, 0x00,
  0x10, 0x00, 0x00, 0x00, 0x32, 0xff, 0xff, 0xff, 0x00, 0x00, 0x00, 0x01,
  0x10, 0x00, 0x00, 0x00, 0x10, 0x00, 0x00, 0x00, 0x05, 0x00, 0x00, 0x00,
  0x3c, 0x00, 0x00, 0x00, 0xb8, 0xfe, 0xff, 0xff, 0x2d, 0x00, 0x00, 0x00,
  0x73, 0x65, 0x71, 0x75, 0x65, 0x6e, 0x74, 0x69, 0x61, 0x6c, 0x5f, 0x31,
  0x2f, 0x64, 0x65, 0x6e, 0x73, 0x65, 0x5f, 0x31, 0x5f, 0x32, 0x2f, 0x42,
  0x69, 0x61, 0x73, 0x41, 0x64, 0x64, 0x2f, 0x52, 0x65, 0x61, 0x64, 0x56,
  0x61, 0x72, 0x69, 0x61, 0x62, 0x6c, 0x65, 0x4f, 0x70, 0x00, 0x00, 0x00,
  0x01, 0x00, 0x00, 0x00, 0x04, 0x00, 0x00, 0x00, 0x8a, 0xff, 0xff, 0xff,
  0x00, 0x00, 0x00, 0x01, 0x10, 0x00, 0x00, 0x00, 0x10, 0x00, 0x00, 0x00,
  0x04, 0x00, 0x00, 0x00, 0x1c, 0x00, 0x00, 0x00, 0x10, 0xff, 0xff, 0xff,
  0x0f, 0x00, 0x00, 0x00, 0x61, 0x72, 0x69, 0x74, 0x68, 0x2e, 0x63, 0x6f,
  0x6e, 0x73, 0x74, 0x61, 0x6e, 0x74, 0x32, 0x00, 0x01, 0x00, 0x00, 0x00,
  0x02, 0x00, 0x00, 0x00, 0xc2, 0xff, 0xff, 0xff, 0x00, 0x00, 0x00, 0x01,
  0x10, 0x00, 0x00, 0x00, 0x10, 0x00, 0x00, 0x00, 0x03, 0x00, 0x00, 0x00,
  0x1c, 0x00, 0x00, 0x00, 0x48, 0xff, 0xff, 0xff, 0x0f, 0x00, 0x00, 0x00,
  0x61, 0x72, 0x69, 0x74, 0x68, 0x2e, 0x63, 0x6f, 0x6e, 0x73, 0x74, 0x61,
  0x6e, 0x74, 0x31, 0x00, 0x02, 0x00, 0x00, 0x00, 0x04, 0x00, 0x00, 0x00,
  0x10, 0x00, 0x00, 0x00, 0x00, 0x00, 0x16, 0x00, 0x18, 0x00, 0x14, 0x00,
  0x00, 0x00, 0x10, 0x00, 0x0c, 0x00, 0x08, 0x00, 0x00, 0x00, 0x00, 0x00,
  0x00, 0x00, 0x07, 0x00, 0x16, 0x00, 0x00, 0x00, 0x00, 0x00, 0x00, 0x01,
  0x10, 0x00, 0x00, 0x00, 0x10, 0x00, 0x00, 0x00, 0x02, 0x00, 0x00, 0x00,
  0x1c, 0x00, 0x00, 0x00, 0x9c, 0xff, 0xff, 0xff, 0x0e, 0x00, 0x00, 0x00,
  0x61, 0x72, 0x69, 0x74, 0x68, 0x2e, 0x63, 0x6f, 0x6e, 0x73, 0x74, 0x61,
  0x6e, 0x74, 0x00, 0x00, 0x02, 0x00, 0x00, 0x00, 0x02, 0x00, 0x00, 0x00,
  0x04, 0x00, 0x00, 0x00, 0x00, 0x00, 0x16, 0x00, 0x1c, 0x00, 0x18, 0x00,
  0x00, 0x00, 0x14, 0x00, 0x10, 0x00, 0x0c, 0x00, 0x00, 0x00, 0x00, 0x00,
  0x08, 0x00, 0x07, 0x00, 0x16, 0x00, 0x00, 0x00, 0x00, 0x00, 0x00, 0x01,
  0x14, 0x00, 0x00, 0x00, 0x20, 0x00, 0x00, 0x00, 0x20, 0x00, 0x00, 0x00,
  0x01, 0x00, 0x00, 0x00, 0x3c, 0x00, 0x00, 0x00, 0x02, 0x00, 0x00, 0x00,
  0xff, 0xff, 0xff, 0xff, 0x14, 0x00, 0x00, 0x00, 0x04, 0x00, 0x04, 0x00,
  0x04, 0x00, 0x00, 0x00, 0x1e, 0x00, 0x00, 0x00, 0x73, 0x65, 0x72, 0x76,
  0x69, 0x6e, 0x67, 0x5f, 0x64, 0x65, 0x66, 0x61, 0x75, 0x6c, 0x74, 0x5f,
  0x6b, 0x65, 0x72, 0x61, 0x73, 0x5f, 0x74, 0x65, 0x6e, 0x73, 0x6f, 0x72,
  0x3a, 0x30, 0x00, 0x00, 0x02, 0x00, 0x00, 0x00, 0x01, 0x00, 0x00, 0x00,
  0x14, 0x00, 0x00, 0x00, 0x02, 0x00, 0x00, 0x00, 0x20, 0x00, 0x00, 0x00,
  0x04, 0x00, 0x00, 0x00, 0xf4, 0xff, 0xff, 0xff, 0x19, 0x00, 0x00, 0x00,
  0x00, 0x00, 0x00, 0x19, 0x0c, 0x00, 0x0c, 0x00, 0x0b, 0x00, 0x00, 0x00,
  0x00, 0x00, 0x04, 0x00, 0x0c, 0x00, 0x00, 0x00, 0x09, 0x00, 0x00, 0x00,
  0x00, 0x00, 0x00, 0x09
};
unsigned int model_tflite_len = 3760;
